<pad>	0
<unk>	0
▁t	-0
▁a	-1
▁m	-2
he	-3
in	-4
▁w	-5
▁s	-6
▁the	-7
re	-8
▁p	-9
▁i	-10
▁o	-11
▁c	-12
at	-13
▁f	-14
▁to	-15
en	-16
ay	-17
▁d	-18
le	-19
or	-20
▁n	-21
st	-22
ar	-23
er	-24
▁me	-25
▁l	-26
on	-27
an	-28
ou	-29
▁h	-30
ll	-31
▁b	-32
ing	-33
hat	-34
▁e	-35
et	-36
ow	-37
▁what	-38
▁is	-39
om	-40
▁my	-41
as	-42
▁ne	-43
▁in	-44
▁re	-45
ve	-46
▁an	-47
▁on	-48
ic	-49
day	-50
▁g	-51
▁li	-52
▁for	-53
▁pl	-54
▁th	-55
▁of	-56
ent	-57
es	-58
il	-59
ase	-60
▁y	-61
▁play	-62
▁r	-63
is	-64
it	-65
lease	-66
▁please	-67
▁do	-68
ur	-69
al	-70
ail	-71
▁fr	-72
▁we	-73
end	-74
gh	-75
ght	-76
me	-77
▁you	-78
▁new	-79
oo	-80
▁st	-81
▁this	-82
ed	-83
mail	-84
▁u	-85
▁today	-86
ke	-87
▁email	-88
▁from	-89
ac	-90
▁ha	-91
▁at	-92
▁list	-93
▁te	-94
▁ev	-95
▁how	-96
▁tw	-97
ind	-98
ad	-99
▁rem	-100
ate	-101
▁j	-102
▁sh	-103
▁can	-104
▁be	-105
▁tr	-106
ain	-107
oc	-108
▁ti	-109
▁are	-110
▁and	-111
us	-112
ong	-113
▁he	-114
out	-115
ut	-116
ion	-117
lly	-118
ld	-119
▁it	-120
▁tell	-121
ir	-122
▁event	-123
▁de	-124
▁have	-125
▁ab	-126
un	-127
ive	-128
▁any	-129
▁olly	-130
▁whe	-131
ch	-132
▁meet	-133
▁time	-134
pp	-135
▁set	-136
▁about	-137
ight	-138
xt	-139
▁cal	-140
▁al	-141
▁song	-142
ot	-143
ast	-144
ook	-145
▁meeting	-146
ant	-147
art	-148
ith	-149
▁with	-150
▁up	-151
▁next	-152
▁light	-153
▁remind	-154
th	-155
dd	-156
▁ch	-157
endar	-158
▁calendar	-159
▁am	-160
ake	-161
arm	-162
her	-163
ge	-164
ol	-165
id	-166
nt	-167
▁se	-168
▁alarm	-169
urn	-170
▁add	-171
um	-172
ek	-173
ould	-174
▁mo	-175
▁turn	-176
▁all	-177
▁week	-178
ist	-179
▁go	-180
▁con	-181
▁v	-182
ock	-183
▁news	-184
▁day	-185
▁pr	-186
ff	-187
ome	-188
▁or	-189
▁need	-190
▁po	-191
▁off	-192
let	-193
▁mus	-194
ather	-195
▁music	-196
▁weather	-197
ill	-198
ation	-199
▁send	-200
▁k	-201
▁want	-202
▁com	-203
ce	-204
pe	-205
ice	-206
▁lights	-207
orr	-208
▁tom	-209
▁that	-210
du	-211
io	-212
ove	-213
▁wh	-214
▁now	-215
che	-216
▁wor	-217
▁will	-218
▁train	-219
ct	-220
ers	-221
▁start	-222
and	-223
orrow	-224
▁tomorrow	-225
am	-226
ly	-227
ick	-228
▁jo	-229
▁emails	-230
ft	-231
▁one	-232
▁when	-233
ine	-234
▁two	-235
ery	-236
urre	-237
▁there	-238
os	-239
▁co	-240
▁curre	-241
▁show	-242
▁events	-243
▁by	-244
▁late	-245
ri	-246
red	-247
▁che	-248
▁rec	-249
▁like	-250
▁find	-251
▁where	-252
our	-253
▁goo	-254
▁rad	-255
▁current	-256
ree	-257
res	-258
dule	-259
▁get	-260
▁mar	-261
▁twe	-262
▁cont	-263
▁make	-264
chedule	-265
ck	-266
▁ro	-267
▁five	-268
▁latest	-269
▁schedule	-270
ak	-271
der	-272
ume	-273
▁remove	-274
act	-275
any	-276
ber	-277
one	-278
ange	-279
cast	-280
▁does	-281
▁radio	-282
all	-283
▁app	-284
iv	-285
▁delet	-286
ore	-287
ven	-288
▁cl	-289
▁ye	-290
enty	-291
▁hun	-292
ie	-293
ack	-294
▁fri	-295
▁three	-296
▁delete	-297
ame	-298
▁was	-299
icket	-300
ffe	-301
int	-302
▁br	-303
▁book	-304
▁comp	-305
▁last	-306
▁twenty	-307
▁ex	-308
dred	-309
list	-310
▁some	-311
▁hundred	-312
▁playlist	-313
se	-314
pen	-315
▁bir	-316
▁out	-317
▁sho	-318
▁check	-319
ia	-320
if	-321
orn	-322
▁ar	-323
▁if	-324
esday	-325
▁give	-326
▁many	-327
▁order	-328
▁as	-329
ment	-330
▁ale	-331
ening	-332
▁ticket	-333
▁hey	-334
▁mon	-335
▁vol	-336
thday	-337
▁tweet	-338
▁birthday	-339
ue	-340
zz	-341
ace	-342
ich	-343
▁not	-344
▁res	-345
▁open	-346
▁eight	-347
ard	-348
now	-349
ffee	-350
▁pod	-351
▁happ	-352
▁stock	-353
▁coffee	-354
▁volume	-355
▁contact	-356
▁reminder	-357
ap	-358
ave	-359
ble	-360
ure	-361
▁le	-362
▁who	-363
▁read	-364
▁going	-365
▁podcast	-366
ag	-367
ix	-368
een	-369
oon	-370
ter	-371
▁loc	-372
▁ten	-373
▁would	-374
de	-375
hn	-376
ite	-377
▁rep	-378
▁john	-379
▁every	-380
▁seven	-381
gle	-382
ies	-383
▁gr	-384
oint	-385
▁cle	-386
▁mov	-387
▁spe	-388
▁nine	-389
▁take	-390
el	-391
mp	-392
ry	-393
ty	-394
ork	-395
▁pro	-396
▁know	-397
▁year	-398
▁should	-399
▁appoint	-400
nd	-401
are	-402
ort	-403
ust	-404
▁pi	-405
▁us	-406
▁let	-407
▁alex	-408
▁date	-409
▁thir	-410
▁songs	-411
av	-412
ess	-413
▁hi	-414
ount	-415
▁has	-416
▁good	-417
▁york	-418
▁alarms	-419
▁appointment	-420
est	-421
▁su	-422
▁sun	-423
▁area	-424
▁cook	-425
▁part	-426
▁pizz	-427
▁work	-428
▁change	-429
▁google	-430
em	-431
aur	-432
▁ph	-433
llar	-434
▁did	-435
▁put	-436
▁six	-437
▁four	-438
▁home	-439
▁morn	-440
▁alexa	-441
▁could	-442
▁pizza	-443
▁dollar	-444
▁friday	-445
▁morning	-446
ul	-447
aff	-448
ide	-449
ood	-450
▁di	-451
ated	-452
book	-453
lain	-454
▁del	-455
▁hour	-456
▁rest	-457
▁speak	-458
▁happening	-459
ud	-460
age	-461
ile	-462
ous	-463
ump	-464
ver	-465
ings	-466
ress	-467
affic	-468
night	-469
▁near	-470
▁party	-471
▁right	-472
▁playing	-473
▁traffic	-474
ah	-475
ax	-476
ip	-477
erv	-478
▁tu	-479
fter	-480
ound	-481
▁def	-482
▁hear	-483
▁item	-484
▁mail	-485
aurant	-486
▁after	-487
▁which	-488
▁complain	-489
▁restaurant	-490
be	-491
ug	-492
ass	-493
ity	-494
▁fi	-495
fore	-496
▁cre	-497
▁inf	-498
▁vac	-499
ition	-500
pping	-501
▁best	-502
▁name	-503
▁rate	-504
▁serv	-505
▁price	-506
▁before	-507
▁tonight	-508
▁tuesday	-509
▁shopping	-510
▁complaint	-511
op	-512
axi	-513
eth	-514
son	-515
urs	-516
ute	-517
ving	-518
▁bet	-519
thing	-520
▁plug	-521
▁post	-522
▁rain	-523
▁room	-524
▁temp	-525
▁deliv	-526
▁trump	-527
▁world	-528
▁thirty	-529
▁service	-530
▁scheduled	-531
mo	-532
▁z	-533
mes	-534
own	-535
uum	-536
▁bo	-537
ween	-538
▁col	-539
▁don	-540
▁upd	-541
▁face	-542
▁food	-543
▁look	-544
▁more	-545
▁most	-546
▁rock	-547
▁save	-548
▁taxi	-549
ursday	-550
▁bright	-551
▁listen	-552
▁vacuum	-553
▁between	-554
▁thursday	-555
dn	-556
ra	-557
ss	-558
ach	-559
ond	-560
orm	-561
▁bl	-562
able	-563
avor	-564
erat	-565
irst	-566
llow	-567
ster	-568
▁des	-569
▁low	-570
▁par	-571
▁per	-572
▁exch	-573
▁stat	-574
▁wedn	-575
▁favor	-576
▁first	-577
▁march	-578
▁monday	-579
▁recent	-580
▁station	-581
▁exchange	-582
▁temperat	-583
▁wednesday	-584
qu	-585
ro	-586
ann	-587
dia	-588
▁sw	-589
▁un	-590
ines	-591
▁aud	-592
▁fift	-593
▁game	-594
▁here	-595
▁jack	-596
▁long	-597
ousand	-598
▁color	-599
▁month	-600
▁movie	-601
▁times	-602
▁friend	-603
▁weekend	-604
▁facebook	-605
▁thousand	-606
ig	-607
cel	-608
cri	-609
ial	-610
inn	-611
les	-612
uch	-613
▁sp	-614
▁art	-615
▁car	-616
▁mom	-617
▁pre	-618
itter	-619
ocket	-620
▁mark	-621
▁much	-622
▁rece	-623
▁twel	-624
▁create	-625
▁descri	-626
▁inform	-627
▁resume	-628
▁socket	-629
▁temperature	-630
aw	-631
ny	-632
ans	-633
ary	-634
ian	-635
iso	-636
ull	-637
▁ep	-638
▁ke	-639
▁pe	-640
▁ask	-641
▁bus	-642
▁got	-643
▁num	-644
isode	-645
▁head	-646
▁shop	-647
▁star	-648
▁lists	-649
▁notif	-650
▁phone	-651
▁reply	-652
▁episode	-653
▁receive	-654
▁twitter	-655
▁anything	-656
▁favorite	-657
▁reminders	-658
▁information	-659
up	-660
cre	-661
ica	-662
ink	-663
ipe	-664
▁fl	-665
▁fo	-666
cent	-667
peat	-668
▁dot	-669
▁eur	-670
▁fun	-671
▁sev	-672
inner	-673
▁call	-674
▁clos	-675
▁days	-676
▁groc	-677
▁joke	-678
▁mile	-679
▁noon	-680
▁sear	-681
▁swit	-682
▁wear	-683
▁wemo	-684
▁audio	-685
▁clean	-686
▁clear	-687
▁count	-688
▁local	-689
▁place	-690
▁cancel	-691
▁dinner	-692
▁number	-693
▁recipe	-694
▁repeat	-695
▁contacts	-696
▁describe	-697
▁received	-698
ep	-699
bot	-700
com	-701
ish	-702
ord	-703
▁bu	-704
▁sm	-705
ates	-706
land	-707
omer	-708
▁bar	-709
▁ele	-710
▁hou	-711
▁min	-712
▁old	-713
▁som	-714
ction	-715
▁cust	-716
▁down	-717
▁sing	-718
▁your	-719
▁defin	-720
▁fifty	-721
▁lower	-722
▁robot	-723
▁movies	-724
▁search	-725
▁address	-726
▁customer	-727
▁meetings	-728
bo	-729
im	-730
wn	-731
ald	-732
ren	-733
▁fe	-734
ames	-735
ance	-736
unch	-737
▁exp	-738
▁gre	-739
▁pop	-740
▁way	-741
▁back	-742
▁city	-743
▁euro	-744
▁fore	-745
▁mute	-746
▁prov	-747
▁pull	-748
▁zone	-749
▁class	-750
▁think	-751
▁follow	-752
▁status	-753
▁sunday	-754
▁switch	-755
▁grocery	-756
▁percent	-757
▁speakers	-758
ael	-759
ank	-760
bum	-761
ect	-762
ert	-763
ire	-764
omm	-765
ram	-766
▁	-767
e	-768
t	-769
a	-770
o	-771
i	-772
n	-773
s	-774
r	-775
h	-776
l	-777
m	-778
d	-779
y	-780
c	-781
w	-782
u	-783
p	-784
f	-785
g	-786
b	-787
v	-788
k	-789
.	-790
'	-791
x	-792
j	-793
z	-794
q	-795
-	-796
&	-797
