<pad>	0
<unk>	0
▁the	-3.26196
s	-3.34822
▁to	-3.81127
▁i	-4.03567
▁	-4.05654
▁a	-4.13404
▁me	-4.1371
▁what	-4.16904
▁my	-4.22261
▁is	-4.23696
a	-4.38183
▁in	-4.41466
▁for	-4.43496
.	-4.44032
d	-4.51187
▁on	-4.54328
t	-4.59191
▁please	-4.65521
▁of	-4.73105
e	-4.73607
n	-4.74892
'	-4.75284
i	-4.76299
y	-4.81753
▁play	-4.86817
▁m	-4.94097
▁do	-4.95292
▁you	-4.9768
▁this	-4.99742
▁today	-5.05443
▁p	-5.06626
o	-5.09756
▁from	-5.09803
ing	-5.11707
▁how	-5.18542
r	-5.21654
▁at	-5.21956
▁list	-5.28547
st	-5.28708
m	-5.31543
▁s	-5.32218
l	-5.36466
▁new	-5.36552
▁and	-5.38566
▁email	-5.40395
▁time	-5.40981
tell	-5.46867
u	-5.48574
▁have	-5.48857
p	-5.4907
▁can	-5.49214
er	-5.52078
▁olly	-5.53032
▁be	-5.54222
▁are	-5.55752
▁about	-5.56526
▁meeting	-5.6111
▁set	-5.6392
▁b	-5.6573
b	-5.66971
▁any	-5.67229
▁with	-5.67806
▁next	-5.68805
▁it	-5.69937
▁an	-5.70166
▁calendar	-5.71866
al	-5.72572
g	-5.73071
▁c	-5.73161
ve	-5.77653
ed	-5.80229
le	-5.80982
▁song	-5.83879
in	-5.85198
▁tur	-5.85212
▁w	-5.86716
▁up	-5.89034
▁all	-5.89385
▁am	-5.90433
an	-5.91413
▁day	-5.93982
▁f	-5.97263
▁need	-5.97743
▁news	-5.98917
▁add	-5.9917
f	-6.00607
▁event	-6.01066
▁weather	-6.0185
▁music	-6.01851
▁send	-6.03265
es	-6.0395
▁want	-6.04691
c	-6.04763
en	-6.06411
▁t	-6.06787
▁lights	-6.10915
▁week	-6.12151
▁that	-6.12169
▁off	-6.13107
▁alarm	-6.13252
▁now	-6.13717
k	-6.15237
▁train	-6.15304
▁will	-6.15304
▁start	-6.16916
▁tomorrow	-6.18555
▁late	-6.20968
ould	-6.21584
▁when	-6.22053
▁fin	-6.22303
▁two	-6.23642
h	-6.25608
▁one	-6.25938
▁there	-6.27729
▁emails	-6.28449
▁n	-6.28724
▁he	-6.28931
▁show	-6.29
▁like	-6.29001
▁g	-6.31825
▁remind	-6.32325
▁by	-6.32429
w	-6.32744
▁events	-6.33816
ch	-6.33998
▁where	-6.34664
▁make	-6.34857
▁go	-6.35193
or	-6.35298
th	-6.36427
▁some	-6.36624
▁get	-6.38825
▁sh	-6.39243
▁schedule	-6.40663
▁remo	-6.40664
▁five	-6.40667
it	-6.41141
▁radio	-6.44874
est	-6.45342
▁delete	-6.51543
▁current	-6.53726
and	-6.55172
▁three	-6.56249
on	-6.59626
▁twenty	-6.61188
▁book	-6.61189
▁last	-6.61437
se	-6.61615
ic	-6.62224
▁hundred	-6.63752
▁playlist	-6.63752
ra	-6.64077
ly	-6.64905
▁order	-6.66387
▁give	-6.66388
▁check	-6.66416
ce	-6.67486
any	-6.69775
▁com	-6.69834
ter	-6.70957
▁ticket	-6.71864
▁was	-6.71971
▁birthday	-6.74721
▁seven	-6.74721
▁tweet	-6.7473
▁light	-6.77265
▁ma	-6.77371
▁reminder	-6.77605
▁eight	-6.77663
▁open	-6.77663
▁doe	-6.79096
▁wh	-6.80281
re	-6.80642
▁coffee	-6.80693
▁volume	-6.80693
▁stock	-6.80693
▁nine	-6.80839
▁de	-6.81928
▁podcast	-6.83818
right	-6.83885
▁k	-6.84096
▁read	-6.842
ie	-6.84255
▁ten	-6.84386
▁who	-6.84493
▁going	-6.84821
ate	-6.85225
un	-6.8548
▁ex	-6.87043
ry	-6.87175
me	-6.89536
▁john	-6.90378
ll	-6.90943
▁six	-6.93825
▁out	-6.9443
ir	-6.95524
▁know	-6.97397
▁year	-6.97397
▁near	-6.97397
▁date	-6.97526
ck	-6.9797
▁h	-6.98022
▁we	-6.98098
▁or	-6.98219
lo	-6.98266
▁re	-6.984
▁hear	-6.99481
▁ch	-7.00896
▁let	-7.0116
▁rate	-7.01241
▁change	-7.02223
▁lo	-7.02749
v	-7.03174
if	-7.04556
▁appointment	-7.04947
▁york	-7.04947
▁good	-7.0496
▁d	-7.05569
ty	-7.05727
▁has	-7.06507
▁google	-7.08947
▁pizza	-7.08947
▁work	-7.08948
▁price	-7.08949
▁cook	-7.0897
▁area	-7.10717
▁alexa	-7.13113
▁dollar	-7.13113
▁morning	-7.13113
▁friday	-7.13114
▁name	-7.13117
▁put	-7.13147
▁home	-7.13165
▁four	-7.13235
▁songs	-7.13445
▁did	-7.13825
▁could	-7.13948
▁alarms	-7.14378
ich	-7.1536
▁hi	-7.15575
ine	-7.17097
▁hour	-7.17547
▁happening	-7.17639
▁r	-7.17721
ur	-7.19858
▁e	-7.20286
ma	-7.21346
ol	-7.21733
▁traffic	-7.22007
▁party	-7.2201
▁ro	-7.22253
▁v	-7.22751
▁listen	-7.23727
ver	-7.24546
▁o	-7.24641
▁us	-7.24886
▁un	-7.25418
▁restaurant	-7.26768
▁item	-7.26791
▁take	-7.26935
▁mail	-7.27438
▁contact	-7.28029
▁playing	-7.28679
el	-7.31121
▁not	-7.31692
▁before	-7.31768
▁complaint	-7.31768
▁service	-7.31768
▁tonight	-7.31768
▁tuesday	-7.31768
▁create	-7.3177
▁shopping	-7.3177
▁fir	-7.32212
▁br	-7.34307
▁rain	-7.35287
▁best	-7.36056
▁every	-7.36978
▁world	-7.37032
▁trump	-7.37032
▁game	-7.37036
▁post	-7.37066
▁resu	-7.37076
▁plug	-7.37131
▁thirty	-7.37146
▁room	-7.37281
z	-7.37339
more	-7.38472
ro	-7.38935
▁la	-7.40619
hous	-7.41551
▁da	-7.42157
twee	-7.42577
▁taxi	-7.42587
▁thursday	-7.42587
▁vacuum	-7.42587
▁food	-7.42587
▁update	-7.42593
▁save	-7.42624
▁most	-7.42628
▁look	-7.42644
▁u	-7.43517
ation	-7.43524
▁car	-7.43633
one	-7.46123
change	-7.46693
▁favorite	-7.48469
▁monday	-7.48469
▁temperature	-7.48469
▁wednesday	-7.48469
▁place	-7.4847
▁color	-7.48473
▁joke	-7.48474
▁station	-7.48485
▁march	-7.48574
▁mu	-7.48905
ard	-7.49035
▁pre	-7.49996
age	-7.507
▁movie	-7.50968
um	-7.51591
▁ra	-7.52655
ia	-7.54541
▁facebook	-7.54719
▁month	-7.54723
▁long	-7.54724
▁weekend	-7.54731
▁friend	-7.55015
ue	-7.55354
▁here	-7.55621
ne	-7.55844
son	-7.56536
mer	-7.58268
co	-7.6074
▁di	-7.60797
▁jo	-7.61379
▁socket	-7.61386
▁phone	-7.61388
▁mark	-7.61529
▁rock	-7.61533
▁co	-7.62022
thing	-7.63175
ice	-7.66337
▁ba	-7.67147
▁episode	-7.68529
▁information	-7.68529
▁number	-7.68529
▁recipe	-7.68529
▁twelve	-7.68529
▁twitter	-7.68529
▁clear	-7.68529
▁reply	-7.6853
▁local	-7.68531
▁shop	-7.68536
▁cancel	-7.68538
▁head	-7.68626
▁ask	-7.68803
▁anything	-7.6892
▁call	-7.69059
ake	-7.69327
ting	-7.69684
usto	-7.70001
▁mom	-7.70257
▁got	-7.726
tion	-7.74171
▁che	-7.74711
ition	-7.75818
▁sing	-7.76178
▁dinner	-7.76221
▁grocer	-7.76221
▁received	-7.76221
▁repeat	-7.76222
▁search	-7.76222
▁describe	-7.76222
▁store	-7.76223
▁wemo	-7.76228
▁wear	-7.76237
▁noon	-7.76363
▁reminders	-7.78129
▁cal	-7.78335
▁con	-7.78423
▁mean	-7.79136
ari	-7.8186
ment	-7.82154
▁contacts	-7.82348
ase	-7.82881
▁dis	-7.84038
▁robot	-7.84555
▁fifty	-7.84555
▁address	-7.84556
▁lower	-7.84556
▁zone	-7.84556
▁close	-7.8456
▁down	-7.84584
▁high	-7.84596
▁old	-7.84603
▁mute	-7.85211
coming	-7.85425
ance	-7.86044
ron	-7.86263
▁liv	-7.86898
ade	-7.87243
▁ho	-7.87402
ish	-7.87508
▁movies	-7.89843
ip	-7.91063
our	-7.91529
▁ha	-7.91776
ure	-7.91916
ell	-7.93019
▁percent	-7.93646
▁status	-7.93646
▁provide	-7.93646
▁think	-7.93646
▁sunday	-7.93646
▁swit	-7.93651
▁pull	-7.93653
▁after	-7.9366
▁city	-7.93666
▁india	-7.93699
▁way	-7.94701
▁your	-7.94968
▁speakers	-7.96048
ok	-7.96879
▁defin	-7.97612
▁define	-7.99441
▁ja	-8.00587
out	-8.01501
▁deliver	-8.02785
▁recent	-8.03502
▁euro	-8.03643
▁following	-8.03646
▁just	-8.03646
▁lunch	-8.03646
▁michael	-8.03646
▁recommend	-8.03646
▁report	-8.03646
▁yesterday	-8.03646
▁album	-8.03646
▁keep	-8.03646
▁minutes	-8.03646
▁afternoon	-8.03646
▁location	-8.03646
▁countr	-8.03646
▁uber	-8.03649
▁blue	-8.03649
▁sent	-8.03689
other	-8.0369
▁house	-8.03698
able	-8.03996
▁love	-8.04561
▁use	-8.04928
▁mar	-8.05749
▁bar	-8.05802
ute	-8.06668
cu	-8.07882
ph	-8.08036
mart	-8.12154
▁chin	-8.12902
ion	-8.131
ving	-8.13674
▁li	-8.13848
▁app	-8.14454
▁around	-8.14757
▁classic	-8.14757
▁detail	-8.14757
▁inbox	-8.14757
▁jazz	-8.14757
▁outside	-8.14757
▁people	-8.14757
▁jackson	-8.14757
▁night	-8.14758
▁message	-8.14761
▁contin	-8.14762
▁trip	-8.14765
▁word	-8.14777
pare	-8.14784
▁paris	-8.1479
▁cleaner	-8.14935
▁back	-8.14937
act	-8.14945
▁see	-8.14982
crea	-8.15004
▁cup	-8.1512
▁office	-8.15153
▁delivery	-8.15726
▁hot	-8.1616
▁pro	-8.16242
oon	-8.17693
▁jan	-8.18282
▁rap	-8.18643
up	-8.18851
▁her	-8.19033
▁red	-8.1963
mail	-8.25393
eat	-8.26639
▁available	-8.27257
▁brightness	-8.27257
▁business	-8.27257
▁chicago	-8.27257
▁july	-8.27257
▁second	-8.27257
▁boston	-8.27257
▁evening	-8.27257
▁funny	-8.27257
▁seventeen	-8.27257
▁park	-8.27257
▁left	-8.27257
▁wedding	-8.27257
elect	-8.27257
▁takeaway	-8.27257
▁again	-8.27257
▁company	-8.27259
▁write	-8.27259
▁worth	-8.2726
▁title	-8.27263
▁forecast	-8.27268
▁loud	-8.27274
▁siri	-8.27276
▁settings	-8.27284
▁pick	-8.27285
▁soc	-8.27289
clock	-8.27293
▁tall	-8.27294
▁than	-8.27297
▁media	-8.27311
point	-8.27355
▁tea	-8.27368
▁town	-8.27399
▁say	-8.27485
▁notif	-8.27503
cast	-8.27942
atch	-8.28024
▁currently	-8.28067
▁real	-8.28607
▁had	-8.28981
▁sun	-8.29759
tri	-8.33021
▁speaker	-8.38075
arry	-8.38209
read	-8.39862
▁happen	-8.40928
ham	-8.41086
▁april	-8.41542
▁artist	-8.41542
▁audio	-8.41542
▁channel	-8.41542
▁chicken	-8.41542
▁dentist	-8.41542
▁eleven	-8.41542
▁kitchen	-8.41542
▁saturday	-8.41542
▁silent	-8.41542
▁umbrella	-8.41542
▁sarah	-8.41542
▁sound	-8.41543
▁arriv	-8.41543
▁answer	-8.41543
▁attend	-8.41543
▁donald	-8.41543
▁mountain	-8.41544
▁fifth	-8.41544
▁activ	-8.41545
▁bedroom	-8.41545
▁great	-8.41545
▁alert	-8.41546
▁angel	-8.41547
▁product	-8.41555
▁cold	-8.41568
▁bob	-8.41578
▁meet	-8.41618
▁cap	-8.41623
▁recently	-8.41753
▁apple	-8.41976
ike	-8.42916
ball	-8.45962
nna	-8.49169
▁du	-8.49238
way	-8.56485
▁plu	-8.57947
▁amazon	-8.58209
▁audiobook	-8.58209
▁concert	-8.58209
▁president	-8.58209
▁record	-8.58209
▁school	-8.58209
▁shuffle	-8.58209
▁steak	-8.58209
-	-8.58209
▁notification	-8.58209
▁doctor	-8.58209
▁suppo	-8.58209
▁domino	-8.58209
▁everyday	-8.58209
▁machine	-8.5821
▁leave	-8.5821
▁garden	-8.5821
▁sister	-8.58211
▁kids	-8.58211
▁america	-8.58212
▁sunny	-8.58219
▁free	-8.58224
▁share	-8.58224
▁direction	-8.58225
▁tune	-8.58226
▁hut	-8.58232
▁born	-8.58241
▁coat	-8.58247
▁rid	-8.58255
▁road	-8.58268
▁buy	-8.58277
▁state	-8.58297
▁pop	-8.58299
▁things	-8.58385
▁hall	-8.5844
▁end	-8.58515
▁over	-8.58571
get	-8.58802
urch	-8.59002
rus	-8.61187
ction	-8.64118
til	-8.70294
time	-8.7653
igh	-8.77668
▁speak	-8.77774
▁airport	-8.78209
▁article	-8.78209
▁cricket	-8.78209
▁currency	-8.78209
▁differen	-8.78209
▁draft	-8.78209
▁enjoy	-8.78209
▁future	-8.78209
▁metallica	-8.78209
▁orlando	-8.78209
▁picture	-8.78209
▁starbucks	-8.78209
▁text	-8.78209
▁travel	-8.78209
▁washington	-8.78209
▁yellow	-8.78209
▁london	-8.78209
▁robert	-8.78209
▁third	-8.78209
▁practic	-8.78209
▁milk	-8.78209
▁track	-8.78211
▁iphone	-8.78211
▁stop	-8.78212
▁popula	-8.78212
▁busy	-8.78212
▁mode	-8.78212
▁life	-8.78214
▁histor	-8.78216
▁yet	-8.78218
▁person	-8.7822
▁grand	-8.7822
▁invit	-8.78222
▁boss	-8.78228
▁program	-8.78234
▁reserv	-8.7824
▁heav	-8.78261
▁fall	-8.78274
part	-8.78309
▁fla	-8.78316
▁fast	-8.78335
▁everything	-8.78434
▁yen	-8.78452
▁tru	-8.7872
▁acc	-8.7893
bow	-8.79159
▁sam	-8.7955
went	-8.81989
▁sea	-8.90891
hat	-8.92523
light	-9.01452
ize	-9.01606
range	-9.02619
▁clean	-9.02806
q	-9.03141
▁qu	-9.03167
gram	-9.03198
▁client	-9.03209
▁cloudy	-9.03209
▁consumer	-9.03209
▁daughter	-9.03209
▁equal	-9.03209
▁express	-9.03209
▁fifteen	-9.03209
▁francis	-9.03209
▁george	-9.03209
▁husband	-9.03209
▁ingredient	-9.03209
▁jim	-9.03209
▁microsoft	-9.03209
▁politic	-9.03209
▁review	-9.03209
▁sports	-9.03209
▁street	-9.03209
▁subject	-9.03209
▁suggest	-9.03209
central	-9.03209
▁beatles	-9.03209
▁seattle	-9.03209
▁break	-9.03209
▁degree	-9.03209
▁snow	-9.03209
screen	-9.0321
▁condition	-9.03211
▁brief	-9.03211
▁remain	-9.03211
▁task	-9.03211
▁plans	-9.03212
▁commute	-9.03212
ough	-9.03213
▁steve	-9.03213
▁river	-9.03214
▁super	-9.03215
▁canada	-9.03216
ious	-9.03216
▁princ	-9.03216
▁girl	-9.03217
▁convert	-9.03218
rida	-9.0322
▁james	-9.03224
▁white	-9.03225
▁talk	-9.03226
▁reach	-9.03229
▁hello	-9.0323
▁oil	-9.0324
▁ryan	-9.03274
hoo	-9.03275
▁peter	-9.03275
ember	-9.03277
▁peso	-9.03304
quar	-9.03319
▁far	-9.03373
rash	-9.03804
orni	-9.03997
anci	-9.06622
▁fil	-9.0679
hair	-9.15329
friend	-9.34754
room	-9.34783
▁thirt	-9.35714
▁direct	-9.36509
duct	-9.36513
▁mount	-9.36539
charged	-9.36542
▁arijit	-9.36542
▁audible	-9.36542
▁breakfast	-9.36542
▁canadian	-9.36542
▁children	-9.36542
▁christmas	-9.36542
▁downtown	-9.36542
▁earlie	-9.36542
▁entire	-9.36542
▁february	-9.36542
▁hockey	-9.36542
▁holiday	-9.36542
▁jacket	-9.36542
▁marriage	-9.36542
▁moscow	-9.36542
▁negative	-9.36542
▁october	-9.36542
▁radius	-9.36542
▁respond	-9.36542
▁rihanna	-9.36542
▁rockville	-9.36542
▁econom	-9.36542
▁includ	-9.36542
▁juli	-9.36542
▁learn	-9.36542
▁replie	-9.36542
▁rupee	-9.36542
▁boots	-9.36543
▁content	-9.36543
▁happy	-9.36543
▁intelligen	-9.36543
▁internet	-9.36543
▁married	-9.36543
▁options	-9.36543
▁running	-9.36543
▁compose	-9.36543
▁miami	-9.36543
▁strong	-9.36543
▁frank	-9.36543
▁december	-9.36543
▁spec	-9.36543
▁present	-9.36543
▁engl	-9.36543
▁atlant	-9.36543
▁easter	-9.36543
▁level	-9.36543
polis	-9.36544
j	-10.8653
&	-10.8654
x	-10.8654
