<pad>	0
<unk>	0
▁k	-0
▁n	-1
ya	-2
wa	-3
▁m	-4
▁ya	-5
ha	-6
ta	-7
li	-8
▁ni	-9
ng	-10
▁ku	-11
za	-12
▁s	-13
ni	-14
ka	-15
na	-16
hi	-17
▁na	-18
ba	-19
en	-20
he	-21
▁wa	-22
ik	-23
▁u	-24
▁a	-25
ri	-26
▁ta	-27
▁sa	-28
ma	-29
ti	-30
le	-31
la	-32
ngu	-33
▁c	-34
fa	-35
pe	-36
▁j	-37
di	-38
▁ma	-39
mb	-40
tu	-41
▁kwa	-42
▁ka	-43
▁o	-44
da	-45
dha	-46
we	-47
ku	-48
▁i	-49
hu	-50
yo	-51
ga	-52
▁ki	-53
pi	-54
zi	-55
ro	-56
te	-57
▁ha	-58
ua	-59
sha	-60
to	-61
▁za	-62
▁ba	-63
ye	-64
▁hi	-65
si	-66
sa	-67
ra	-68
ja	-69
▁yangu	-70
fu	-71
bu	-72
▁saa	-73
▁tafa	-74
iki	-75
▁tafadha	-76
▁tafadhali	-77
▁cha	-78
nge	-79
bi	-80
pa	-81
re	-82
▁ga	-83
mi	-84
ki	-85
su	-86
wen	-87
ho	-88
zo	-89
▁kwen	-90
heza	-91
iku	-92
▁pe	-93
▁le	-94
no	-95
ji	-96
rua	-97
▁leo	-98
vi	-99
▁barua	-100
▁la	-101
▁pepe	-102
▁kwenye	-103
enda	-104
▁mo	-105
▁oro	-106
▁gani	-107
▁tu	-108
▁hu	-109
nga	-110
▁w	-111
▁t	-112
mba	-113
▁ju	-114
▁una	-115
▁orodha	-116
▁mi	-117
sho	-118
ke	-119
▁ke	-120
toka	-121
▁p	-122
mbo	-123
▁siku	-124
me	-125
▁kutoka	-126
mu	-127
mbi	-128
▁nini	-129
▁cheza	-130
do	-131
de	-132
shi	-133
weza	-134
kio	-135
tano	-136
▁we	-137
▁zi	-138
ne	-139
▁mu	-140
ko	-141
husu	-142
she	-143
▁ji	-144
▁nia	-145
▁kuhusu	-146
je	-147
▁b	-148
imbo	-149
mbu	-150
ll	-151
▁vi	-152
▁juma	-153
▁moja	-154
▁nina	-155
▁hii	-156
pya	-157
▁kati	-158
bari	-159
cha	-160
▁ina	-161
▁habari	-162
iko	-163
mbie	-164
▁hali	-165
▁weka	-166
lly	-167
▁mku	-168
▁olly	-169
futa	-170
yote	-171
idi	-172
▁niambie	-173
ju	-174
▁kal	-175
▁mkutano	-176
lia	-177
▁mpya	-178
▁sasa	-179
▁kalenda	-180
▁li	-181
▁ra	-182
▁nai	-183
▁taa	-184
ru	-185
ze	-186
▁je	-187
▁si	-188
rehe	-189
ngeza	-190
▁unaweza	-191
▁v	-192
robi	-193
taka	-194
ngele	-195
▁zaidi	-196
▁nairobi	-197
kumbu	-198
du	-199
gapi	-200
▁ngapi	-201
▁katika	-202
▁kengele	-203
che	-204
fan	-205
▁mbi	-206
▁mwa	-207
▁hivi	-208
nda	-209
ribu	-210
▁karibu	-211
ene	-212
uti	-213
▁he	-214
on	-215
wi	-216
▁ny	-217
cheza	-218
▁wimbo	-219
▁mbili	-220
▁ongeza	-221
▁g	-222
▁kumi	-223
▁an	-224
buhi	-225
▁asu	-226
▁asubuhi	-227
▁kuna	-228
▁pa	-229
ngi	-230
▁sauti	-231
▁re	-232
ende	-233
gi	-234
▁tukio	-235
fi	-236
po	-237
▁tarehe	-238
ziki	-239
lisha	-240
▁tuma	-241
▁nataka	-242
chana	-243
▁hewa	-244
▁muziki	-245
▁mchana	-246
▁mia	-247
mo	-248
▁iko	-249
▁ili	-250
ngo	-251
▁kesho	-252
un	-253
ele	-254
▁zo	-255
▁matu	-256
▁wiki	-257
▁kucheza	-258
▁te	-259
kati	-260
▁huu	-261
▁yo	-262
kuwa	-263
taji	-264
oni	-265
▁wakati	-266
▁ja	-267
▁gari	-268
hitaji	-269
▁matukio	-270
dio	-271
mbe	-272
▁wangu	-273
enya	-274
liwa	-275
▁futa	-276
bo	-277
▁yoyote	-278
fua	-279
▁kenya	-280
lo	-281
fuata	-282
penda	-283
▁zima	-284
dhi	-285
▁do	-286
▁so	-287
hawa	-288
▁kuwa	-289
so	-290
▁pi	-291
▁vya	-292
fanya	-293
zu	-294
▁da	-295
▁po	-296
eneo	-297
kula	-298
▁anga	-299
chi	-300
siki	-301
▁jioni	-302
cho	-303
onye	-304
endele	-305
dilisha	-306
kumbushe	-307
▁fu	-308
▁ti	-309
fiki	-310
▁eneo	-311
▁hadi	-312
▁washa	-313
▁karibuni	-314
▁on	-315
▁to	-316
▁tatu	-317
zaliwa	-318
▁nikumbushe	-319
▁f	-320
ike	-321
▁us	-322
▁moshi	-323
▁chakula	-324
jayo	-325
▁baa	-326
▁e	-327
rini	-328
▁kua	-329
▁kila	-330
▁kitu	-331
▁bo	-332
dika	-333
▁uju	-334
▁ishi	-335
▁wapi	-336
▁inayo	-337
▁angalia	-338
▁ishirini	-339
▁ita	-340
▁nili	-341
▁iliyo	-342
▁usiku	-343
doa	-344
▁huko	-345
▁nita	-346
▁ujumbe	-347
▁kuzaliwa	-348
▁be	-349
▁aje	-350
▁twi	-351
▁kama	-352
▁yote	-353
▁zote	-354
▁redio	-355
endelea	-356
mia	-357
nia	-358
▁du	-359
liza	-360
zuri	-361
iketi	-362
▁amba	-363
▁tano	-364
▁jo	-365
ngua	-366
▁nyu	-367
onyeshe	-368
▁nyimbo	-369
▁fa	-370
▁hisa	-371
▁sana	-372
▁kusiki	-373
om	-374
nzi	-375
pata	-376
▁mwi	-377
▁nne	-378
ngene	-379
▁tisa	-380
▁zangu	-381
▁tiketi	-382
▁nionyeshe	-383
sti	-384
▁bi	-385
cheze	-386
▁dola	-387
▁ijayo	-388
▁ukumbu	-389
▁ukumbusho	-390
va	-391
kua	-392
lio	-393
tie	-394
▁al	-395
▁ondoa	-396
▁kwenda	-397
▁tafuta	-398
maa	-399
nza	-400
▁se	-401
ungu	-402
▁anza	-403
▁fungua	-404
▁mwanga	-405
be	-406
chu	-407
hwa	-408
kea	-409
nun	-410
ria	-411
▁ali	-412
▁ana	-413
wango	-414
▁nime	-415
▁langu	-416
▁kahawa	-417
▁nyumba	-418
▁nahitaji	-419
uzi	-420
▁ro	-421
lala	-422
▁toa	-423
▁kazi	-424
▁kina	-425
▁lini	-426
▁saba	-427
▁mwisho	-428
vu	-429
▁go	-430
fari	-431
▁bei	-432
▁mta	-433
▁uta	-434
▁mimi	-435
▁nipe	-436
unguza	-437
dikasti	-438
▁safari	-439
▁kiwango	-440
▁podikasti	-441
kwa	-442
ndi	-443
nsi	-444
hili	-445
pika	-446
▁juu	-447
▁nane	-448
▁simu	-449
▁miadi	-450
▁mwaka	-451
▁kufanya	-452
▁badilisha	-453
ck	-454
st	-455
▁ru	-456
yama	-457
▁iju	-458
▁kia	-459
▁the	-460
chezo	-461
yesha	-462
▁sita	-463
▁jinsi	-464
▁ijumaa	-465
▁punguza	-466
xa	-467
ika	-468
nne	-469
▁fi	-470
hali	-471
kani	-472
wasi	-473
zote	-474
▁ale	-475
▁ame	-476
▁mai	-477
▁pla	-478
▁rati	-479
▁ninge	-480
▁twita	-481
▁zozote	-482
▁mwangaza	-483
lu	-484
▁y	-485
dia	-486
endi	-487
mani	-488
▁agi	-489
▁mwe	-490
▁she	-491
fadhi	-492
wekwa	-493
▁lina	-494
▁alexa	-495
ngeneza	-496
bla	-497
gle	-498
sta	-499
tatu	-500
wani	-501
▁chu	-502
▁maa	-503
zisha	-504
▁kita	-505
▁niju	-506
▁niko	-507
▁shili	-508
▁ratiba	-509
▁sherehe	-510
▁nyumbani	-511
▁shilingi	-512
▁ningependa	-513
ce	-514
bwa	-515
▁au	-516
hami	-517
hini	-518
lamu	-519
ogle	-520
▁kif	-521
▁kuu	-522
▁tek	-523
▁upi	-524
▁jibu	-525
▁kipi	-526
▁kabla	-527
▁google	-528
gu	-529
pu	-530
se	-531
dhe	-532
eno	-533
ter	-534
dani	-535
duma	-536
fany	-537
sini	-538
unde	-539
▁mtu	-540
▁bora	-541
▁hili	-542
▁pata	-543
rekani	-544
▁kiasi	-545
▁changu	-546
▁filamu	-547
▁huduma	-548
▁nitafu	-549
▁jumanne	-550
badilisha	-551
gra	-552
kta	-553
mbia	-554
teja	-555
tuma	-556
weke	-557
▁iki	-558
▁ime	-559
▁kuo	-560
▁mji	-561
lishe	-562
▁nani	-563
▁unun	-564
▁vipi	-565
chezee	-566
dhesha	-567
▁baada	-568
▁ndani	-569
▁punde	-570
▁teksi	-571
▁anwani	-572
▁malala	-573
▁naweza	-574
▁ununuzi	-575
▁marekani	-576
▁nichezee	-577
▁nijulishe	-578
▁orodhesha	-579
▁kusikiliza	-580
jia	-581
zwa	-582
▁el	-583
▁ko	-584
▁nu	-585
▁su	-586
liyo	-587
ngwa	-588
refu	-589
▁mbo	-590
▁tre	-591
▁hapa	-592
▁mama	-593
▁muda	-594
▁zina	-595
▁ikoje	-596
▁mwezi	-597
▁rangi	-598
▁hifadhi	-599
▁nitafutie	-600
▁me	-601
kana	-602
▁nje	-603
▁shu	-604
▁wik	-605
▁kuni	-606
hamisi	-607
▁namba	-608
▁plagi	-609
▁treni	-610
▁baadhi	-611
▁chumba	-612
▁kupika	-613
▁itakuwa	-614
▁wikendi	-615
▁alhamisi	-616
▁jumatano	-617
▁jumatatu	-618
▁inayofuata	-619
ca	-620
go	-621
jua	-622
nde	-623
pen	-624
vyo	-625
▁bu	-626
▁fe	-627
enye	-628
safi	-629
▁ala	-630
▁asi	-631
▁pro	-632
eleze	-633
yonzi	-634
▁asha	-635
▁elfu	-636
▁joto	-637
▁kisu	-638
▁kuku	-639
▁nami	-640
▁watu	-641
▁zime	-642
endeke	-643
rafiki	-644
▁dunia	-645
▁kituo	-646
▁machi	-647
▁nyama	-648
▁nzuri	-649
▁ambayo	-650
▁kitabu	-651
▁mchezo	-652
▁kipindi	-653
▁kifyonzi	-654
▁tengeneza	-655
et	-656
ok	-657
mie	-658
chwa	-659
huru	-660
keti	-661
ngee	-662
pita	-663
▁com	-664
▁ipi	-665
▁jua	-666
gramu	-667
mbasa	-668
ngapi	-669
▁mtaa	-670
▁njia	-671
▁unao	-672
mbusho	-673
▁ikiwa	-674
▁maele	-675
fanyika	-676
▁kisumu	-677
▁yaliyo	-678
▁kusikia	-679
▁mombasa	-680
▁ubadilisha	-681
nd	-682
saa	-683
sia	-684
▁in	-685
book	-686
kika	-687
pati	-688
rifa	-689
rika	-690
weka	-691
zima	-692
▁mka	-693
▁uku	-694
▁uli	-695
▁face	-696
▁kiko	-697
▁miku	-698
▁robo	-699
▁yana	-700
▁zili	-701
chukua	-702
pengee	-703
▁agizo	-704
▁mboga	-705
▁uhuru	-706
▁rafiki	-707
▁soketi	-708
▁kinacho	-709
▁nambari	-710
▁facebook	-711
▁programu	-712
▁ninahitaji	-713
ge	-714
il	-715
ve	-716
com	-717
faa	-718
ina	-719
iri	-720
kaa	-721
nja	-722
tta	-723
ndao	-724
nzia	-725
shwa	-726
some	-727
tter	-728
weli	-729
▁gha	-730
jambo	-731
ktari	-732
▁java	-733
▁kuta	-734
▁mipa	-735
▁ulio	-736
▁wemo	-737
nyesha	-738
▁asili	-739
▁fanya	-740
▁dakika	-741
▁kupata	-742
▁mahali	-743
▁ukumbi	-744
▁daktari	-745
▁hujambo	-746
▁kuanzia	-747
▁trafiki	-748
▁twitter	-749
▁kenyatta	-750
▁mikutano	-751
▁safaricom	-752
ny	-753
jio	-754
lie	-755
mwa	-756
ndu	-757
swa	-758
vua	-759
zza	-760
▁ab	-761
▁ca	-762
▁ri	-763
beba	-764
fika	-765
giza	-766
ingi	-767
leni	-768
▁	-769
a	-770
i	-771
n	-772
u	-773
e	-774
k	-775
o	-776
h	-777
m	-778
t	-779
y	-780
s	-781
l	-782
w	-783
b	-784
z	-785
r	-786
d	-787
g	-788
p	-789
j	-790
c	-791
f	-792
v	-793
.	-794
x	-795
'	-796
q	-797
