<pad>	0
<unk>	0
▁	-2.87931
▁ya	-3.13023
a	-3.15329
e	-3.60279
▁ni	-4.07752
▁na	-4.14892
▁kwa	-4.24124
▁wa	-4.28392
o	-4.44662
▁ku	-4.53991
▁yangu	-4.75234
▁saa	-4.7593
u	-4.76419
▁tafadhali	-4.78869
i	-4.82628
ua	-4.9654
▁bar	-4.98021
wa	-4.98151
▁leo	-5.00299
▁za	-5.01991
ni	-5.03993
▁pepe	-5.0719
▁kweny	-5.07192
▁u	-5.11301
▁gani	-5.13529
▁m	-5.13602
▁ma	-5.18843
t	-5.19749
▁orodha	-5.23848
s	-5.24587
ka	-5.24921
li	-5.25448
▁ki	-5.26264
▁cha	-5.26265
▁la	-5.26762
cheza	-5.2849
▁siku	-5.34693
▁kutoka	-5.36822
n	-5.38979
▁nini	-5.4128
ri	-5.42084
▁kuhusu	-5.54785
weka	-5.55762
ta	-5.56156
na	-5.5761
.	-5.58956
zi	-5.60715
▁moja	-5.62457
r	-5.63238
▁hii	-5.63523
▁habari	-5.6607
▁hali	-5.68621
▁olly	-5.68874
▁niambi	-5.70315
ji	-5.74804
▁mkutano	-5.75816
▁mpya	-5.77875
▁kalenda	-5.78832
▁sasa	-5.78845
ma	-5.79286
si	-5.79739
la	-5.82608
▁unaweza	-5.84232
▁je	-5.84775
▁nairobi	-5.85321
▁zaidi	-5.85326
▁kengele	-5.87581
▁ngapi	-5.87585
▁katika	-5.87716
m	-5.88119
▁nina	-5.88296
l	-5.90046
mu	-5.90836
le	-5.90925
▁hivi	-5.91069
ki	-5.92004
▁taa	-5.92536
▁mbili	-5.93472
ko	-5.94107
di	-5.94357
▁ongez	-5.94497
▁wimbo	-5.94684
▁kumi	-5.97494
▁asubuhi	-5.98435
p	-6.01107
▁kuna	-6.01436
ra	-6.02896
▁sauti	-6.03665
▁tukio	-6.07776
▁tarehe	-6.09183
ti	-6.12626
y	-6.13514
▁tuma	-6.14745
▁vi	-6.14836
▁muziki	-6.15024
▁hewa	-6.15113
▁mchana	-6.1654
fu	-6.18571
▁ta	-6.1975
▁kesho	-6.2123
yo	-6.21578
▁mia	-6.2199
za	-6.23585
▁s	-6.2393
enda	-6.24316
▁wiki	-6.2448
f	-6.2609
▁huu	-6.26552
c	-6.26627
ke	-6.27329
▁kucheza	-6.27363
▁ina	-6.27675
sa	-6.27836
▁t	-6.28359
▁wakati	-6.29574
ja	-6.30427
ku	-6.31121
be	-6.31281
▁matukio	-6.3132
▁wangu	-6.33932
me	-6.35738
▁natak	-6.36255
▁yoyote	-6.36776
▁gari	-6.38675
sha	-6.38726
▁futa	-6.39343
b	-6.39486
▁zima	-6.40625
▁juma	-6.40633
pa	-6.42214
pi	-6.42288
zo	-6.43945
▁mi	-6.44535
bu	-6.44844
d	-6.4504
▁vya	-6.46587
to	-6.48449
▁una	-6.49678
po	-6.50081
▁jioni	-6.50799
nikumbushe	-6.52978
▁iko	-6.53159
mba	-6.54671
▁eneo	-6.55195
▁hadi	-6.55383
nahitaji	-6.55626
nda	-6.5573
▁karibuni	-6.55761
▁kuwa	-6.55857
je	-6.55864
▁ba	-6.56306
▁washa	-6.5694
▁tatu	-6.57525
▁i	-6.59039
pata	-6.59291
▁chakula	-6.59795
▁moshi	-6.59796
ondo	-6.60392
▁k	-6.61021
nd	-6.61598
we	-6.61659
futa	-6.62013
▁kitu	-6.64631
angali	-6.65173
▁b	-6.66446
▁kenya	-6.67111
▁ishirini	-6.67113
nga	-6.68548
▁wapi	-6.68996
▁karibu	-6.69025
▁ujum	-6.69677
▁usiku	-6.6968
j	-6.69751
no	-6.712
go	-6.71368
taka	-6.72459
▁kuzaliwa	-6.72471
▁huko	-6.72514
mo	-6.72881
da	-6.73882
▁aje	-6.74009
▁redio	-6.75012
▁zote	-6.75012
▁yote	-6.75012
▁kama	-6.75106
toa	-6.76387
g	-6.77594
▁tano	-6.78071
z	-6.79933
▁f	-6.80214
▁nyimbo	-6.80646
▁c	-6.80649
▁iliyo	-6.80734
▁kil	-6.82151
▁tu	-6.8354
▁hisa	-6.83737
iketi	-6.83739
ba	-6.83742
▁n	-6.84219
nionyesh	-6.86472
ia	-6.86484
▁tisa	-6.86643
▁nne	-6.8675
▁zangu	-6.87288
isha	-6.87308
▁nili	-6.87376
h	-6.87847
▁g	-6.88176
ngu	-6.88742
▁ukumbusho	-6.89742
▁ijayo	-6.89743
▁dola	-6.89916
w	-6.91701
▁kwenda	-6.92974
penda	-6.9302
jibu	-6.93496
▁ha	-6.93704
▁fungu	-6.94433
▁anza	-6.96304
▁so	-6.97099
▁hu	-6.97382
▁ali	-6.97525
▁langu	-7.0036
▁kahawa	-7.02372
ngo	-7.03128
ny	-7.03279
▁mwisho	-7.03321
▁saba	-7.03348
▁kazi	-7.03469
▁lini	-7.03532
lo	-7.04095
▁ana	-7.04241
ne	-7.0531
▁kiwan	-7.06232
▁podikasti	-7.07025
▁sana	-7.07116
▁bei	-7.07157
▁mimi	-7.07181
nge	-7.08453
ha	-7.08827
ng	-7.10753
tengenez	-7.1082
▁punguz	-7.10871
▁mwaka	-7.10918
▁simu	-7.11049
▁juu	-7.1113
▁dak	-7.1158
▁kufanya	-7.11756
▁badilisha	-7.1193
rudi	-7.12047
ch	-7.12801
▁nane	-7.12872
cha	-7.1324
mi	-7.13463
▁nipe	-7.14462
▁ijumaa	-7.14871
▁jinsi	-7.14871
▁sita	-7.14965
▁mw	-7.1539
er	-7.16925
hi	-7.17687
▁uta	-7.18237
▁hi	-7.18416
▁twita	-7.19038
▁zozote	-7.19038
▁mwangaza	-7.19086
▁pe	-7.19345
k	-7.21577
cheze	-7.2269
▁kati	-7.22968
▁pa	-7.23079
▁alexa	-7.23385
hifadhi	-7.23388
lingi	-7.23392
▁fi	-7.23768
▁inayo	-7.23885
▁ningep	-7.25033
lia	-7.25082
▁shi	-7.26441
▁sherehe	-7.27931
▁ratiba	-7.27931
adhi	-7.27941
▁nyumbani	-7.28131
ende	-7.28415
ndo	-7.29599
fanya	-7.32607
▁google	-7.32693
▁kabla	-7.32693
hudum	-7.32767
▁amba	-7.33586
mbo	-7.34274
▁upi	-7.34376
▁niko	-7.34769
endelea	-7.35361
▁kita	-7.35843
kumbu	-7.3736
orodhesh	-7.37693
▁jumanne	-7.37694
▁bora	-7.3771
▁kiasi	-7.37805
▁nijulish	-7.38014
▁hili	-7.38382
▁ame	-7.38383
▁nitafut	-7.38518
▁changu	-7.38573
gi	-7.39345
▁el	-7.402
ika	-7.41389
ya	-7.426
mbi	-7.42893
▁do	-7.42902
▁marekani	-7.42956
▁punde	-7.42956
▁teksi	-7.42956
▁anwani	-7.42956
▁kusikiliza	-7.42957
▁ununuzi	-7.42958
▁ndani	-7.43048
▁rang	-7.43079
▁vipi	-7.43563
▁iki	-7.43826
▁naweza	-7.44128
cho	-7.44478
tumi	-7.45879
▁mji	-7.46332
ili	-7.47988
▁mwezi	-7.48531
▁muda	-7.48557
▁hapa	-7.48831
▁ikoje	-7.48904
chi	-7.49327
▁mama	-7.52034
fafanu	-7.54394
▁alhamisi	-7.54394
▁wikendi	-7.54394
▁plagi	-7.54394
▁chumba	-7.54394
▁treni	-7.54394
▁jumatatu	-7.54394
▁jumatano	-7.54395
▁kupika	-7.54415
nyama	-7.54422
▁inayofuata	-7.54441
▁itakuwa	-7.54517
▁nje	-7.54786
keti	-7.54892
pili	-7.56318
▁namba	-7.58801
tumia	-7.59356
▁kifyonzi	-7.60644
▁kipindi	-7.60644
▁mchezo	-7.60644
▁nzuri	-7.60645
chukua	-7.60647
she	-7.60669
▁watu	-7.6078
amani	-7.61024
pas	-7.61081
▁machi	-7.61353
▁asha	-7.61482
ongez	-7.61685
▁kuu	-7.61956
▁nani	-7.62341
zu	-7.62532
▁joto	-7.62796
▁nami	-7.63209
panga	-7.63368
▁th	-7.63659
▁au	-7.64681
▁ambay	-7.66803
▁nime	-7.6714
▁mombasa	-7.67311
▁kisumu	-7.67311
▁com	-7.67319
▁duka	-7.67334
▁njia	-7.67353
▁yaliyo	-7.67411
uliza	-7.67452
▁mtaa	-7.67534
kubwa	-7.67567
▁ipi	-7.67992
▁maele	-7.68262
▁kusiki	-7.68294
▁jan	-7.68706
▁lina	-7.68735
pita	-7.68749
giza	-7.68868
▁ili	-7.69244
▁maan	-7.69672
▁jua	-7.69842
pendekez	-7.71034
bo	-7.71744
▁ru	-7.72652
▁da	-7.74083
pya	-7.74263
▁facebook	-7.74453
▁programu	-7.74453
▁safari	-7.74453
▁mboga	-7.74454
▁rafiki	-7.74468
▁kuanz	-7.74506
arifa	-7.74512
▁uhuru	-7.7458
fiki	-7.75017
▁agizo	-7.75163
biri	-7.75748
kahawa	-7.76422
▁kuku	-7.76995
weza	-7.78098
ll	-7.78817
tuma	-7.80046
▁ita	-7.8047
kw	-7.8122
▁java	-7.82146
▁safaricom	-7.82146
▁twitter	-7.82146
▁hujambo	-7.82146
▁trafiki	-7.82146
▁ukumbi	-7.82151
▁kenyatta	-7.82153
nunu	-7.82154
anzish	-7.82154
▁asili	-7.82157
kutano	-7.82158
▁baada	-7.8216
▁wemo	-7.8217
likuwa	-7.8223
▁ulio	-7.82247
sema	-7.82582
▁mahali	-7.82666
siki	-7.83132
toka	-7.83155
chapish	-7.83716
fika	-7.83849
ck	-7.8414
eleke	-7.85824
▁onyesh	-7.85854
naendelea	-7.85915
ski	-7.87557
uku	-7.87958
imu	-7.88795
▁anga	-7.89415
refu	-7.90477
▁hamsini	-7.90479
▁kipengee	-7.90479
▁mvua	-7.90479
▁resipe	-7.90479
▁pizza	-7.90479
▁tweet	-7.90479
▁nusu	-7.90479
pangwa	-7.90482
▁maduka	-7.90485
▁kubeba	-7.90486
▁yenye	-7.90486
▁kwanza	-7.90515
▁jina	-7.90674
▁nchi	-7.90701
kuja	-7.91172
▁maili	-7.91564
▁andik	-7.92351
▁at	-7.92848
shi	-7.93141
▁masa	-7.93823
on	-7.93869
▁sol	-7.95399
du	-7.97349
▁men	-7.9839
fanyika	-7.98927
takuwa	-7.99475
▁kuju	-7.99548
safiri	-7.9957
▁john	-7.9957
▁mtandao	-7.9957
nisomee	-7.9957
▁zilizo	-7.99571
▁kweli	-7.99574
▁mzuri	-7.99574
fuata	-7.99609
▁roboti	-7.99624
▁chajio	-7.9963
▁chini	-7.99634
idha	-7.99657
▁vich	-7.99662
▁ubadilisha	-7.99882
toke	-8.00498
▁re	-8.00565
▁ime	-8.00595
chagu	-8.01184
mbe	-8.01237
hali	-8.01888
▁huo	-8.02972
sho	-8.04087
▁kwangu	-8.04224
tafut	-8.0763
patikana	-8.0957
vyot	-8.0957
▁malalamiko	-8.0957
▁thelathini	-8.0957
fedha	-8.0957
▁mazoezi	-8.0957
▁zinazo	-8.0957
▁nipatie	-8.09571
▁wateja	-8.09571
▁niweke	-8.09585
▁picha	-8.09596
▁tena	-8.09654
▁nen	-8.10338
poke	-8.10554
▁soma	-8.10628
poti	-8.10722
ishi	-8.1075
▁ndi	-8.11028
masha	-8.11464
▁bi	-8.11478
atu	-8.12242
niambi	-8.15077
▁mtu	-8.15376
▁aj	-8.15415
▁uki	-8.15744
kezo	-8.17025
▁che	-8.17801
▁kutum	-8.18997
▁dunia	-8.1999
kuu	-8.20419
▁he	-8.2058
mail	-8.20662
'	-8.20681
▁alasiri	-8.20681
▁albamu	-8.20681
▁biashara	-8.20681
▁chochote	-8.20681
▁kampuni	-8.20681
▁kinachofuata	-8.20681
▁malalamishi	-8.20681
▁michezo	-8.20681
▁ofisi	-8.20681
▁mutinda	-8.20681
▁sinema	-8.20681
▁magari	-8.20682
▁mteja	-8.20682
afrika	-8.20682
nyamazisha	-8.20683
▁radio	-8.20683
hesabu	-8.20686
▁watoto	-8.20695
▁zimewekwa	-8.20695
ganda	-8.20708
songa	-8.20715
▁kulala	-8.20716
▁mlima	-8.20719
▁yajayo	-8.20744
▁zipi	-8.2081
▁koti	-8.20816
▁ilikuwa	-8.20974
ehe	-8.20975
▁ninaweza	-8.21219
▁hiyo	-8.21307
▁nieleze	-8.22117
▁ucheze	-8.22543
mbu	-8.24692
▁ju	-8.2827
fungu	-8.28405
▁agiz	-8.2939
▁harusi	-8.33181
▁ndege	-8.33181
▁nyingi	-8.33181
gahawa	-8.33181
▁vikumbusho	-8.33181
▁nakuru	-8.33181
▁rock	-8.33181
penzi	-8.33182
▁mipangilio	-8.33182
▁pamoja	-8.33182
▁mashine	-8.33182
▁kikombe	-8.33183
▁julai	-8.33184
▁jumia	-8.33185
▁sasish	-8.33194
saidi	-8.33199
▁uber	-8.33204
▁imewekwa	-8.33208
▁mbele	-8.33217
▁vitu	-8.33223
ghairi	-8.33231
wote	-8.33275
▁moto	-8.33276
▁linalo	-8.33422
tahitaji	-8.33452
▁nimepata	-8.33488
▁siri	-8.33545
▁pig	-8.33668
▁sawa	-8.33769
▁mrefu	-8.34163
▁iwe	-8.343
mili	-8.34884
▁ama	-8.35786
wasilisha	-8.36217
gh	-8.40291
▁mad	-8.41466
eleze	-8.45623
▁nyumba	-8.46808
x	-8.47467
▁mawasiliano	-8.47467
▁mwavuli	-8.47467
▁sanaipei	-8.47467
▁shughuli	-8.47467
▁aprili	-8.47467
▁msanii	-8.47467
▁barabara	-8.47467
▁jikoni	-8.47468
▁jumamosi	-8.4747
▁abdi	-8.47472
badilik	-8.47472
lote	-8.47475
▁kuchekesha	-8.47478
rekodi	-8.47482
▁inn	-8.47485
▁eleza	-8.47488
▁tafa	-8.47489
▁itanyesha	-8.47508
▁ujao	-8.47539
▁baridi	-8.4755
pande	-8.47613
▁zime	-8.47636
▁yanayo	-8.47643
▁nitengeneze	-8.47667
▁wo	-8.47691
▁kuona	-8.47815
▁nafa	-8.48142
▁duniani	-8.4838
onyesh	-8.48695
uweke	-8.48884
baki	-8.491
kutan	-8.50591
son	-8.51697
▁gha	-8.52367
enye	-8.53006
nyesha	-8.55638
pelek	-8.55894
res	-8.56676
uleni	-8.56879
joto	-8.58333
zaliwa	-8.63078
▁mwanga	-8.63987
chezwa	-8.64054
wekwa	-8.64094
ratibiw	-8.64133
▁tanzania	-8.64133
▁tofauti	-8.64133
▁zijazo	-8.64134
▁ifuatayo	-8.64134
▁mingapi	-8.64136
safisha	-8.64137
▁mzaha	-8.6414
▁haraka	-8.64142
▁maonyesho	-8.64142
▁spika	-8.64148
▁baadaye	-8.64148
▁shule	-8.64148
▁bado	-8.64151
▁wangapi	-8.64152
▁bongo	-8.64156
▁pokezi	-8.64172
kadiri	-8.64172
▁mbwa	-8.64174
▁jambo	-8.64175
▁unaeza	-8.64185
▁tande	-8.6419
▁maziwa	-8.64226
▁nyot	-8.64291
itwa	-8.64316
▁ste	-8.64346
▁dada	-8.64526
▁muh	-8.64843
lingan	-8.64894
den	-8.65419
chic	-8.66184
rab	-8.67896
iti	-8.71365
▁ziw	-8.7262
ist	-8.73653
badilisha	-8.77674
hitaji	-8.79574
maan	-8.79627
furahi	-8.79856
shwa	-8.80457
▁sam	-8.81846
hudhuri	-8.83339
q	-8.84133
▁brown	-8.84133
▁bustani	-8.84133
▁iphone	-8.84133
▁microsoft	-8.84133
▁mwasiliani	-8.84133
▁rhumba	-8.84133
▁themanini	-8.84133
▁kidogo	-8.84134
▁mitandao	-8.84134
wezekan	-8.84134
▁bluu	-8.84134
▁changanya	-8.84134
▁lijalo	-8.84134
pendwa	-8.84134
ssica	-8.84134
▁wastani	-8.84135
▁kusoma	-8.84135
▁pilau	-8.84135
▁fulani	-8.84135
▁vizuri	-8.84137
▁unaofuata	-8.84138
▁nimepokea	-8.84138
▁kimya	-8.84141
▁malaika	-8.84142
▁rejea	-8.8415
▁kilicho	-8.8415
wasiliana	-8.8416
naanza	-8.84174
▁maju	-8.8418
▁rais	-8.84203
▁hisia	-8.84217
▁bosi	-8.84228
▁kuamk	-8.84248
▁pop	-8.84291
▁mipang	-8.84302
ingiz	-8.8438
room	-8.84395
our	-8.84603
rahis	-8.84686
hamish	-8.84746
▁sur	-8.84843
▁kas	-8.87753
furahish	-8.88612
inaweza	-8.91549
adala	-8.95039
umz	-8.98546
andik	-9.03846
husu	-9.08048
historia	-9.09133
tulivu	-9.09133
▁citizen	-9.09133
▁franci	-9.09133
▁instagram	-9.09133
▁kinachoendelea	-9.09133
▁mawingu	-9.09133
▁nyekundu	-9.09133
▁standard	-9.09133
▁vilivyo	-9.09133
husian	-9.09134
▁jazz	-9.09134
▁kijamii	-9.09134
▁manjano	-9.09134
▁endeleza	-9.09134
▁news	-9.09134
▁familia	-9.09134
▁sarah	-9.09134
▁garimoshi	-9.09134
▁play	-9.09134
▁likizo	-9.09135
▁nyuma	-9.09135
▁west	-9.09136
▁tisini	-9.09136
▁unafikiri	-9.09136
▁kukaanga	-9.09137
▁wetu	-9.09137
▁karata	-9.09137
▁ubadilishanaji	-9.09138
▁rashid	-9.09138
tayarish	-9.09139
▁sitini	-9.09139
ghett	-9.0914
▁vifaa	-9.09141
chelew	-9.09141
▁inaanguk	-9.09141
▁hakiki	-9.09141
sasishw	-9.09149
▁nation	-9.09149
▁amerika	-9.0915
▁huyu	-9.0915
▁paris	-9.09154
▁ufuatao	-9.09159
▁juml	-9.09162
▁thel	-9.0917
▁bwana	-9.09171
▁iliyotu	-9.09184
▁mbaya	-9.09194
▁yey	-9.0942
▁kupig	-9.09558
▁ann	-9.09628
arry	-9.09642
julish	-9.09668
▁unaochez	-9.10859
tazam	-9.12803
inafanyika	-9.14659
mish	-9.30425
▁unafany	-9.30945
fanyi	-9.41927
▁robo	-9.42243
v	-10.6302
